<unk>	0
<s>	0
</s>	0
st	-0
õõ	-1
mu	-2
tt	-3
um	-4
▁k	-5
žž	-6
muš	-7
dd	-8
▁p	-9
▁v	-10
ste	-11
kk	-12
ll	-13
uõ	-14
mõ	-15
sa	-16
vv	-17
stes	-18
▁t	-19
mš	-20
ân	-21
ää	-22
▁s	-23
mõš	-24
ummš	-25
san	-26
aa	-27
eä	-28
uä	-29
ee	-30
mõõ	-31
▁r	-32
▁l	-33
▁č	-34
oo	-35
▁n	-36
iõ	-37
uâ	-38
▁j	-39
âst	-40
rr	-41
še	-42
ss	-43
jj	-44
ue	-45
▁m	-46
nn	-47
mõõžž	-48
muu	-49
pp	-50
ââ	-51
gg	-52
õõtt	-53
mm	-54
åå	-55
em	-56
ummša	-57
õõvv	-58
âž	-59
▁ǩ	-60
ǩǩ	-61
ii	-62
en	-63
muužž	-64
uu	-65
est	-66
õõll	-67
zz	-68
cc	-69
umuš	-70
až	-71
am	-72
ie	-73
iâ	-74
▁nj	-75
as	-76
šk	-77
vuõ	-78
žže	-79
ǥǥ	-80
šše	-81
mõšš	-82
▁š	-83
▁h	-84
mušš	-85
eâ	-86
ǧǧ	-87
õs	-88
stt	-89
bb	-90
äi	-91
ai	-92
ummuš	-93
az	-94
▁c	-95
čč	-96
ummu	-97
âm	-98
âtt	-99
šš	-100
ei	-101
ed	-102
uå	-103
đđ	-104
ŋŋ	-105
ld	-106
ʒʒ	-107
au	-108
▁vuõ	-109
õõzz	-110
âd	-111
tõõll	-112
âstt	-113
rdd	-114
htt	-115
ou	-116
rd	-117
žžâž	-118
es	-119
rt	-120
▁ä	-121
mušân	-122
mušstes	-123
mõõžžâž	-124
mõšân	-125
mõõžži	-126
mõššân	-127
mõšstes	-128
mõšše	-129
mõõžžâst	-130
ldd	-131
▁vuä	-132
in	-133
mušše	-134
muužži	-135
muššân	-136
mužžâž	-137
muužžâst	-138
lm	-139
▁vue	-140
eem	-141
stõõll	-142
âs	-143
ar	-144
an	-145
al	-146
▁vuâ	-147
or	-148
õss	-149
škuä	-150
ǥǥas	-151
ummuž	-152
ummše	-153
ummši	-154
ummšaž	-155
ummšen	-156
umušân	-157
ummšest	-158
ummšasan	-159
umušstes	-160
nj	-161
vuõtt	-162
eei	-163
asan	-164
▁mu	-165
rj	-166
sk	-167
▁kuä	-168
er	-169
vuõđ	-170
âk	-171
uum	-172
rvv	-173
▁kuõ	-174
ââǥǥas	-175
ǯǯ	-176
âkaz	-177
▁ǩiõ	-178
▁čuõ	-179
▁kä	-180
▁st	-181
▁kaa	-182
▁mä	-183
tõõvv	-184
ri	-185
ääi	-186
ast	-187
ttem	-188
õdd	-189
ttj	-190
▁kå	-191
õõv	-192
eu	-193
vdd	-194
ra	-195
tem	-196
õõđ	-197
lmm	-198
▁vä	-199
▁o	-200
▁tuâ	-201
åi	-202
oou	-203
at	-204
kkl	-205
▁vi	-206
▁tuõ	-207
lǥ	-208
lgg	-209
▁ku	-210
tte	-211
ânn	-212
▁ko	-213
rjj	-214
▁kõ	-215
▁jeä	-216
rv	-217
▁sa	-218
ad	-219
oudd	-220
▁jiõ	-221
li	-222
▁to	-223
kt	-224
▁viõ	-225
št	-226
lt	-227
▁peä	-228
▁ǩeâ	-229
▁kue	-230
llj	-231
▁kuâ	-232
kkt	-233
stõ	-234
ma	-235
ka	-236
kks	-237
▁teä	-238
▁sää	-239
▁pä	-240
ne	-241
re	-242
hss	-243
ddj	-244
▁veä	-245
▁ǩeä	-246
ttl	-247
▁ǩi	-248
aan	-249
▁kåå	-250
rǥ	-251
jt	-252
▁pe	-253
ji	-254
kå	-255
▁õ	-256
aau	-257
▁poo	-258
vt	-259
▁čå	-260
▁koo	-261
uei	-262
▁ää	-263
rgg	-264
▁puä	-265
▁ka	-266
▁po	-267
mmš	-268
▁čuä	-269
▁kõõ	-270
▁re	-271
aal	-272
õrr	-273
▁b	-274
▁rää	-275
▁sä	-276
▁čiõ	-277
lǧǧ	-278
▁pâ	-279
lvv	-280
ttum	-281
▁kâ	-282
rrj	-283
stem	-284
im	-285
ǩiõ	-286
▁pi	-287
▁pa	-288
lst	-289
rn	-290
škue	-291
▁paa	-292
▁jä	-293
llem	-294
õõšš	-295
▁tää	-296
je	-297
te	-298
raa	-299
▁ǩe	-300
▁kää	-301
▁u	-302
▁suõ	-303
▁f	-304
si	-305
lkk	-306
rm	-307
saž	-308
sse	-309
štt	-310
▁ti	-311
rmm	-312
▁a	-313
▁å	-314
▁vuõi	-315
▁d	-316
▁i	-317
kåå	-318
▁rä	-319
laž	-320
udd	-321
le	-322
ltt	-323
rkk	-324
▁tä	-325
▁åå	-326
åimm	-327
po	-328
ckk	-329
▁sk	-330
▁aa	-331
uâkk	-332
õõl	-333
eed	-334
rǧǧ	-335
õõǥǥ	-336
▁sp	-337
sm	-338
čuõ	-339
škk	-340
▁ruõ	-341
ko	-342
▁tu	-343
▁tuä	-344
▁pr	-345
▁pei	-346
▁pää	-347
▁čuâ	-348
▁oo	-349
▁mo	-350
lõõvv	-351
rk	-352
▁kuå	-353
vue	-354
ni	-355
ǩi	-356
▁raa	-357
▁čää	-358
la	-359
škuõ	-360
▁meä	-361
▁ru	-362
nnj	-363
▁teâ	-364
▁lää	-365
▁vää	-366
▁reä	-367
▁ââ	-368
lõõtt	-369
▁e	-370
skk	-371
päi	-372
▁jie	-373
vuä	-374
▁vaa	-375
▁påå	-376
▁â	-377
▁oudd	-378
už	-379
ja	-380
▁vii	-381
id	-382
zze	-383
▁ri	-384
▁miâ	-385
sǩ	-386
▁lä	-387
ǩǩe	-388
ti	-389
õk	-390
iste	-391
tted	-392
▁tuâjj	-393
jõõvv	-394
▁suu	-395
zstes	-396
čõõtt	-397
tkk	-398
▁si	-399
eer	-400
đi	-401
tǩǩ	-402
rbb	-403
õõzzi	-404
õssân	-405
okk	-406
õõzzâž	-407
õõzzâst	-408
õsse	-409
õsân	-410
õr	-411
va	-412
▁äi	-413
▁li	-414
▁ve	-415
mi	-416
hh	-417
▁jää	-418
▁mädd	-419
▁kuu	-420
vä	-421
stâtt	-422
ǩe	-423
tõ	-424
▁luâ	-425
rää	-426
lk	-427
iõtt	-428
lj	-429
ppj	-430
▁piâ	-431
ǥa	-432
igg	-433
kää	-434
tuâ	-435
▁maa	-436
sââ	-437
me	-438
rnn	-439
▁på	-440
vi	-441
iâšš	-442
âr	-443
▁seä	-444
lbb	-445
ppl	-446
kksan	-447
▁va	-448
▁pii	-449
õõttmõš	-450
puä	-451
▁too	-452
vuâ	-453
kkn	-454
ggt	-455
iikk	-456
stõõvv	-457
▁õõ	-458
dstes	-459
ddi	-460
▁ju	-461
▁mie	-462
đas	-463
suõ	-464
låå	-465
▁pââ	-466
đam	-467
mummš	-468
uåpp	-469
lää	-470
▁loo	-471
▁kr	-472
lõ	-473
▁ro	-474
▁puõ	-475
jem	-476
▁njuõ	-477
ooud	-478
▁jåå	-479
▁miõ	-480
jstes	-481
aukk	-482
▁luõ	-483
nt	-484
▁joo	-485
▁võõ	-486
▁ǩie	-487
zzt	-488
▁le	-489
sä	-490
lp	-491
▁uu	-492
▁ǩee	-493
mä	-494
llt	-495
▁siõ	-496
škuätt	-497
llš	-498
lo	-499
rst	-500
lǩǩ	-501
▁vuâđđ	-502
▁šk	-503
kst	-504
▁njaa	-505
vuu	-506
kkân	-507
▁piõ	-508
ââtt	-509
▁ta	-510
▁ča	-511
pei	-512
▁kõs	-513
lõõ	-514
▁pl	-515
jõõtt	-516
õnn	-517
▁tåimm	-518
▁lââ	-519
ptt	-520
▁so	-521
▁juu	-522
▁sn	-523
▁se	-524
se	-525
▁čâ	-526
jummuš	-527
jummša	-528
ååim	-529
laa	-530
di	-531
▁no	-532
▁te	-533
lv	-534
sti	-535
ppt	-536
âdd	-537
lč	-538
âvv	-539
ǩeä	-540
▁g	-541
pi	-542
▁tue	-543
ǩee	-544
põõ	-545
kaa	-546
ut	-547
jaž	-548
dgg	-549
kõõ	-550
jest	-551
õzstes	-552
▁suei	-553
peä	-554
▁sii	-555
ikk	-556
▁põ	-557
▁põõ	-558
▁lå	-559
▁puäʒʒ	-560
▁vuei	-561
pst	-562
kä	-563
▁moo	-564
rrn	-565
▁heä	-566
tti	-567
▁al	-568
▁lo	-569
ddõõtt	-570
▁pu	-571
luu	-572
▁pee	-573
▁suä	-574
mõõvv	-575
▁su	-576
▁či	-577
▁pie	-578
šǩǩ	-579
äinn	-580
ro	-581
jjl	-582
▁suâ	-583
▁čeä	-584
ivv	-585
▁liâ	-586
▁la	-587
dõõtt	-588
▁saa	-589
đe	-590
pä	-591
▁čåu	-592
šn	-593
hčč	-594
tää	-595
sted	-596
lstes	-597
pii	-598
mää	-599
▁leä	-600
kka	-601
viõ	-602
pää	-603
poo	-604
sǩǩ	-605
▁por	-606
▁sǩ	-607
▁låå	-608
▁viâ	-609
sasan	-610
▁puâ	-611
▁tuu	-612
▁ee	-613
na	-614
äu	-615
kõ	-616
rest	-617
paa	-618
▁čõ	-619
stõõtt	-620
▁peâ	-621
▁taa	-622
▁mätt	-623
▁tiõ	-624
iv	-625
đt	-626
čuâ	-627
nstes	-628
kuä	-629
ččl	-630
▁õhtt	-631
ââvv	-632
el	-633
ssj	-634
ääm	-635
▁sõõ	-636
rčč	-637
hâtt	-638
▁ruä	-639
râstt	-640
▁njuä	-641
▁jiõŋŋ	-642
ff	-643
pââ	-644
▁lâ	-645
rb	-646
nee	-647
▁noo	-648
mum	-649
▁au	-650
ve	-651
▁tõ	-652
lâtt	-653
ooum	-654
ncc	-655
iniste	-656
ǩǩen	-657
roo	-658
koo	-659
vaa	-660
åidd	-661
lle	-662
rre	-663
rs	-664
ŋkk	-665
tummuš	-666
tummša	-667
jåå	-668
rrâm	-669
▁vee	-670
vve	-671
vvum	-672
tk	-673
▁vie	-674
▁så	-675
vuõđi	-676
▁kõskk	-677
▁jue	-678
lu	-679
vuõttân	-680
vuõđâž	-681
vuõđâst	-682
vuõttsan	-683
vuõđstes	-684
kon	-685
peei	-686
▁kau	-687
▁ǩiõtt	-688
▁čä	-689
▁čoo	-690
tõs	-691
vvj	-692
pääi	-693
mõõn	-694
▁šõdd	-695
väldd	-696
▁ra	-697
kuõ	-698
raž	-699
▁sue	-700
ud	-701
▁puå	-702
suåpp	-703
▁cee	-704
dde	-705
čää	-706
▁do	-707
brr	-708
ǩǩi	-709
ku	-710
sää	-711
▁mää	-712
zzk	-713
▁tob	-714
ddstes	-715
sttem	-716
rstes	-717
▁må	-718
▁sie	-719
lâ	-720
vvem	-721
▁hää	-722
ǩstes	-723
tuâjj	-724
õrtt	-725
mes	-726
veä	-727
▁nju	-728
▁ristt	-729
mõõntõõll	-730
▁čo	-731
▁måå	-732
kiste	-733
idd	-734
čuä	-735
▁muâ	-736
▁soo	-737
▁tiâ	-738
stâ	-739
šõõvv	-740
▁veâ	-741
pss	-742
▁in	-743
šõdd	-744
▁ǩiâ	-745
gi	-746
lla	-747
▁ii	-748
▁vei	-749
stummša	-750
sen	-751
õõvi	-752
âvvaz	-753
âl	-754
ree	-755
ugg	-756
▁laa	-757
llsan	-758
šem	-759
jed	-760
▁ciâ	-761
eävv	-762
▁nää	-763
ddsan	-764
▁nä	-765
on	-766
ust	-767
stõk	-768
▁kââ	-769
almš	-770
▁läi	-771
âjj	-772
▁hââ	-773
šnn	-774
põ	-775
inn	-776
rǩǩ	-777
dda	-778
▁tiudd	-779
jji	-780
nnem	-781
rõõšš	-782
ǥaž	-783
sest	-784
▁njâ	-785
jje	-786
jjam	-787
rtt	-788
▁cõ	-789
▁ceä	-790
▁staan	-791
muõrr	-792
▁ce	-793
▁lue	-794
oum	-795
ssâm	-796
uur	-797
▁na	-798
ren	-799
ssa	-800
▁lu	-801
▁čue	-802
ted	-803
oocc	-804
muõ	-805
▁nuõ	-806
▁råå	-807
õõvam	-808
õõvas	-809
õõvvmõš	-810
meä	-811
mmj	-812
▁tå	-813
▁lee	-814
▁neu	-815
že	-816
ccj	-817
žen	-818
▁nje	-819
õõttâd	-820
vd	-821
ǩie	-822
dǧǧ	-823
▁mââ	-824
▁roo	-825
âttaz	-826
▁vuõiǥ	-827
stummuš	-828
rč	-829
čuâkk	-830
▁njââ	-831
ini	-832
âlm	-833
▁rõ	-834
▁tie	-835
▁suud	-836
kuâ	-837
▁kal	-838
lb	-839
▁raajj	-840
od	-841
▁puu	-842
▁tiõrv	-843
▁vuõdd	-844
▁jå	-845
▁võ	-846
▁mue	-847
lli	-848
▁njiõ	-849
påå	-850
▁cõõ	-851
ânnam	-852
ruu	-853
urr	-854
▁tâ	-855
▁sââ	-856
maž	-857
▁sei	-858
lstõõll	-859
kue	-860
miõ	-861
âânn	-862
lâstt	-863
âsvuõtt	-864
▁äu	-865
ǩest	-866
▁pirr	-867
maa	-868
riâšš	-869
bǯǯ	-870
▁pri	-871
kääzzk	-872
puõ	-873
▁ne	-874
▁čårr	-875
▁lõ	-876
▁lei	-877
uåttum	-878
kkâm	-879
ps	-880
ddč	-881
miâ	-882
rcc	-883
rä	-884
jeä	-885
lest	-886
muõr	-887
škuäđam	-888
škuäđas	-889
škuättaz	-890
škuåttum	-891
škuõttum	-892
vu	-893
čuõpp	-894
čkt	-895
▁vu	-896
rii	-897
pč	-898
vstes	-899
▁rei	-900
lõs	-901
▁kor	-902
▁rie	-903
tõõtt	-904
jdd	-905
šin	-906
õõđi	-907
stted	-908
lǥt	-909
▁hiâ	-910
▁pro	-911
▁ǩii	-912
vuõigg	-913
kkš	-914
kõõsk	-915
puõcc	-916
loo	-917
siõ	-918
▁cuä	-919
▁ämm	-920
õttum	-921
rddem	-922
▁jiõnn	-923
jjn	-924
llum	-925
äigg	-926
ttsan	-927
▁vââ	-928
▁ha	-929
rõõtt	-930
nst	-931
▁ree	-932
▁see	-933
▁šää	-934
äidd	-935
õõvvâd	-936
lä	-937
sttj	-938
▁muõrr	-939
âz	-940
▁šo	-941
tåimm	-942
▁me	-943
▁muõ	-944
▁seu	-945
bl	-946
lčč	-947
õõđam	-948
▁tååim	-949
▁oocc	-950
õõđas	-951
▁ǩiõll	-952
iiu	-953
ǥǥt	-954
mp	-955
kkj	-956
▁kar	-957
ppi	-958
llaz	-959
pie	-960
kstes	-961
▁tåimmam	-962
mmi	-963
▁hu	-964
▁nar	-965
▁peäl	-966
ggõõtt	-967
kaž	-968
▁jo	-969
eell	-970
stum	-971
vvõõvv	-972
▁peitt	-973
▁šp	-974
▁ruâ	-975
raajj	-976
rasan	-977
mo	-978
neǩ	-979
ruõ	-980
▁hoo	-981
kuõbb	-982
▁lie	-983
jstõõll	-984
bǯ	-985
vj	-986
▁neä	-987
mašin	-988
ǥstes	-989
▁jiõn	-990
▁nõ	-991
▁kruu	-992
▁ooud	-993
aull	-994
mrd	-995
râtt	-996
▁ålgg	-997
masan	-998
vuõiggâd	-999
sue	-1000
ha	-1001
▁šõ	-1002
mest	-1003
▁nuä	-1004
nummša	-1005
ŋg	-1006
stam	-1007
bll	-1008
ddaž	-1009
rkkõõvv	-1010
râ	-1011
mie	-1012
nummuš	-1013
rõ	-1014
▁lõõ	-1015
▁domm	-1016
▁čaa	-1017
▁algg	-1018
lpp	-1019
▁pue	-1020
porr	-1021
ppõõtt	-1022
lå	-1023
▁še	-1024
▁nee	-1025
▁ska	-1026
▁vuõjj	-1027
saa	-1028
ââll	-1029
▁jiõčč	-1030
čâ	-1031
▁muå	-1032
neävv	-1033
vää	-1034
▁meer	-1035
llk	-1036
▁piõgg	-1037
▁poorrâm	-1038
eâll	-1039
▁nji	-1040
▁tee	-1041
rekiste	-1042
stuum	-1043
stummu	-1044
stâkaz	-1045
stââǥǥas	-1046
▁čuâǥǥas	-1047
▁ma	-1048
▁ruu	-1049
lstem	-1050
põrtt	-1051
žasan	-1052
lai	-1053
põõrt	-1054
âsv	-1055
▁ai	-1056
lf	-1057
ŋk	-1058
▁njä	-1059
▁narod	-1060
▁vuejjam	-1061
jen	-1062
las	-1063
▁tõõ	-1064
iin	-1065
ldi	-1066
nest	-1067
▁ǩiđđ	-1068
rtõõll	-1069
tä	-1070
teä	-1071
▁toll	-1072
åårr	-1073
ǩǩes	-1074
mstes	-1075
suâ	-1076
▁hi	-1077
eâtt	-1078
▁čuõm	-1079
ldõ	-1080
ppe	-1081
čiõ	-1082
▁ci	-1083
▁šeä	-1084
▁tobd	-1085
ik	-1086
lmi	-1087
▁suå	-1088
cci	-1089
ŋǩǩ	-1090
▁šl	-1091
skt	-1092
▁liõ	-1093
raav	-1094
▁nja	-1095
▁teâtt	-1096
mt	-1097
crd	-1098
nâs	-1099
▁ar	-1100
un	-1101
▁miârr	-1102
nns	-1103
▁mâ	-1104
▁leu	-1105
▁siâ	-1106
oummu	-1107
▁jõnn	-1108
▁jeäll	-1109
▁obb	-1110
▁sǩi	-1111
stõõl	-1112
pe	-1113
ccl	-1114
esi	-1115
iimm	-1116
ââst	-1117
▁ämmat	-1118
eeid	-1119
stte	-1120
đast	-1121
▁čââ	-1122
▁jaau	-1123
▁spesi	-1124
kktõõll	-1125
tååim	-1126
▁kaupp	-1127
ǥǥtõõll	-1128
cǩǩ	-1129
▁juõ	-1130
õõttmõ	-1131
õõttmõõ	-1132
õõttmõšš	-1133
õõttmõõžž	-1134
õõttmõšân	-1135
õõttmõšše	-1136
õõttmõõžži	-1137
õõttmõššân	-1138
õõttmõõžžâž	-1139
õõttmõšstes	-1140
õõttmõõžžâst	-1141
▁čee	-1142
▁riâšš	-1143
tu	-1144
nää	-1145
pčč	-1146
tam	-1147
tee	-1148
▁vâ	-1149
▁cii	-1150
▁kai	-1151
▁lau	-1152
▁ǩidd	-1153
õõttmu	-1154
▁tuejj	-1155
▁viõrr	-1156
õõttmuu	-1157
õõttmuš	-1158
õõttmušš	-1159
õõttmuužž	-1160
õõttmušân	-1161
õõttmušše	-1162
õõttmuužži	-1163
õõttmuššân	-1164
õõttmužžâž	-1165
õõttmušstes	-1166
õõttmuužžâst	-1167
på	-1168
to	-1169
beä	-1170
rie	-1171
ju	-1172
ta	-1173
kknj	-1174
štõõvv	-1175
reä	-1176
rri	-1177
tuõ	-1178
tâtt	-1179
seä	-1180
eerka	-1181
ooul	-1182
ttjem	-1183
nd	-1184
ddem	-1185
ull	-1186
▁aassâm	-1187
▁ceerka	-1188
rte	-1189
ǩrd	-1190
▁riõ	-1191
lddem	-1192
ǩǩest	-1193
▁kõõsk	-1194
rh	-1195
vâ	-1196
▁če	-1197
▁tal	-1198
õvvum	-1199
▁vuõptt	-1200
raf	-1201
rss	-1202
čkk	-1203
õõǥǥi	-1204
▁säärn	-1205
vâs	-1206
jåått	-1207
tta	-1208
▁vuå	-1209
▁šiõtt	-1210
rc	-1211
kke	-1212
▁čõõ	-1213
nnsan	-1214
▁vuõigg	-1215
õõǥǥâž	-1216
õõǥǥâst	-1217
▁jälstem	-1218
▁hau	-1219
jd	-1220
ǥǥaž	-1221
ki	-1222
rji	-1223
▁nââ	-1224
▁vaal	-1225
ŋgg	-1226
▁sõ	-1227
men	-1228
ppn	-1229
õõli	-1230
▁čåå	-1231
âsviikk	-1232
res	-1233
▁vo	-1234
▁reâ	-1235
▁šuu	-1236
dden	-1237
▁nue	-1238
us	-1239
õõr	-1240
oukk	-1241
▁poost	-1242
pl	-1243
▁haa	-1244
kuu	-1245
les	-1246
čââ	-1247
▁ja	-1248
▁rå	-1249
▁hei	-1250
▁rõõ	-1251
jumuš	-1252
jummuž	-1253
jummše	-1254
jummši	-1255
jummšaž	-1256
jummšen	-1257
jumušân	-1258
jummšest	-1259
jummšasan	-1260
jumušstes	-1261
važ	-1262
zzi	-1263
aunn	-1264
suei	-1265
▁ciâlk	-1266
▁liâdgg	-1267
ǥe	-1268
šttj	-1269
▁lii	-1270
ǥasan	-1271
▁redd	-1272
ssn	-1273
▁par	-1274
▁säi	-1275
tstes	-1276
▁vuäzz	-1277
nnen	-1278
▁lai	-1279
▁luä	-1280
ppsan	-1281
stter	-1282
▁pann	-1283
▁virkkõõvv	-1284
▁ääi	-1285
▁pååđ	-1286
▁võrr	-1287
rrõõvv	-1288
▁čuõpp	-1289
ke	-1290
piâ	-1291
▁jiâ	-1292
ldõk	-1293
▁väi	-1294
▁vuâstt	-1295
▁ceerkav	-1296
kono	-1297
▁čii	-1298
kâstt	-1299
▁vuâll	-1300
pro	-1301
vvn	-1302
▁muä	-1303
jjsan	-1304
raukk	-1305
▁jaaus	-1306
▁muu	-1307
ǩiõčč	-1308
▁njoo	-1309
▁njuu	-1310
▁veärr	-1311
mme	-1312
▁fi	-1313
▁rii	-1314
cǩ	-1315
ddu	-1316
▁juâ	-1317
▁rââ	-1318
kkmõš	-1319
plaan	-1320
kai	-1321
naž	-1322
▁cu	-1323
▁sau	-1324
smâtt	-1325
▁autt	-1326
▁äimm	-1327
ttčõõtt	-1328
▁tiõrvâsvuõtt	-1329
mõs	-1330
nni	-1331
suä	-1332
žžen	-1333
valmš	-1334
▁njää	-1335
▁ministe	-1336
llu	-1337
▁šâdd	-1338
▁pirrõs	-1339
pee	-1340
vest	-1341
▁lâu	-1342
▁sǩeâ	-1343
▁jânnam	-1344
▁ž	-1345
ddl	-1346
▁kou	-1347
jie	-1348
nne	-1349
đšt	-1350
đđem	-1351
▁riâ	-1352
umm	-1353
ǩeâ	-1354
rdč	-1355
njuõ	-1356
ttõõll	-1357
šǩ	-1358
kku	-1359
ortt	-1360
lõõčč	-1361
piijj	-1362
▁valmš	-1363
▁ǩeâll	-1364
jä	-1365
rš	-1366
hšš	-1367
ååid	-1368
håidd	-1369
kksõdd	-1370
ckt	-1371
nju	-1372
nna	-1373
▁ho	-1374
▁inn	-1375
itt	-1376
pplee	-1377
pstes	-1378
rrsan	-1379
▁čiõpp	-1380
sei	-1381
ʒʒt	-1382
õõdd	-1383
ǧǧen	-1384
▁jee	-1385
ddest	-1386
▁njui	-1387
pâ	-1388
bdd	-1389
▁lokk	-1390
▁njeä	-1391
čuâkks	-1392
vai	-1393
jasan	-1394
kontt	-1395
ristt	-1396
ministe	-1397
▁õhttsaž	-1398
stumuš	-1399
stummuž	-1400
stummše	-1401
stummši	-1402
stummšaž	-1403
stummšen	-1404
stumušân	-1405
stummšest	-1406
stummšasan	-1407
stumušstes	-1408
br	-1409
▁kuär	-1410
▁lääi	-1411
ru	-1412
nai	-1413
rddi	-1414
▁troo	-1415
lam	-1416
ppš	-1417
roi	-1418
tteem	-1419
tääll	-1420
▁peälšt	-1421
llv	-1422
▁mai	-1423
▁tuå	-1424
▁vuäivv	-1425
ib	-1426
jam	-1427
åhtt	-1428
šeell	-1429
jtõõll	-1430
▁peâmm	-1431
lee	-1432
▁nuâ	-1433
▁val	-1434
mummu	-1435
▁kultt	-1436
▁čackk	-1437
tumuš	-1438
lummuš	-1439
lummša	-1440
tummuž	-1441
tummše	-1442
tummši	-1443
tummšaž	-1444
tummšen	-1445
tumušân	-1446
tummšest	-1447
tummšasan	-1448
tumušstes	-1449
vii	-1450
jtem	-1451
▁ääu	-1452
ddes	-1453
jjen	-1454
llen	-1455
▁cou	-1456
▁reu	-1457
ǥstõõll	-1458
▁z	-1459
cca	-1460
▁per	-1461
čuäjt	-1462
sstes	-1463
vddkå	-1464
mummuš	-1465
mummša	-1466
▁straa	-1467
mbb	-1468
▁kuõss	-1469
▁rostt	-1470
▁luâđast	-1471
▁vuäzzlaž	-1472
nk	-1473
gga	-1474
nes	-1475
▁šn	-1476
mõõtt	-1477
▁ištt	-1478
▁čõõđ	-1479
▁kuõbb	-1480
▁liikk	-1481
bie	-1482
▁muš	-1483
▁ođđ	-1484
sttum	-1485
▁ooum	-1486
▁plii	-1487
▁jåårǥ	-1488
▁reidd	-1489
▁rämmš	-1490
▁ciâlkâlm	-1491
čk	-1492
▁čuå	-1493
▁jõ	-1494
▁mi	-1495
▁kuvdd	-1496
▁luâtt	-1497
▁nordd	-1498
▁spesiaal	-1499
ori	-1500
▁ni	-1501
▁sâ	-1502
rrev	-1503
šlaa	-1504
▁oođ	-1505
▁såå	-1506
▁skoo	-1507
▁porgg	-1508
▁sijdd	-1509
iiv	-1510
lln	-1511
lma	-1512
ǩen	-1513
last	-1514
▁mee	-1515
▁mei	-1516
▁pal	-1517
▁peei	-1518
▁staa	-1519
▁väldd	-1520
▁hä	-1521
orgg	-1522
vtem	-1523
mmsan	-1524
puäcc	-1525
kkõõvv	-1526
llemvue	-1527
▁hâ	-1528
▁or	-1529
dest	-1530
škkl	-1531
nõõvv	-1532
jjstes	-1533
lstõõvv	-1534
rrjõõvv	-1535
▁šõddâm	-1536
jja	-1537
▁čiŋ	-1538
▁kõrr	-1539
▁okkn	-1540
▁ǩičč	-1541
▁teädd	-1542
ggn	-1543
▁mõ	-1544
ainn	-1545
juum	-1546
ooid	-1547
stee	-1548
▁näi	-1549
▁čuu	-1550
jummu	-1551
jâkaz	-1552
rjtem	-1553
ââttam	-1554
ââttas	-1555
jââǥǥas	-1556
tõzstes	-1557
ǩǩem	-1558
stroi	-1559
▁soptt	-1560
▁ooccâm	-1561
huâ	-1562
▁kârr	-1563
ččlõdd	-1564
▁väinn	-1565
▁tååimtem	-1566
nue	-1567
vuuv	-1568
▁spä	-1569
vuuvd	-1570
▁juâkk	-1571
tâ	-1572
aar	-1573
mmn	-1574
lfon	-1575
jjest	-1576
▁kaau	-1577
▁njuâ	-1578
▁nõmm	-1579
kääzzkõs	-1580
▁šõddeem	-1581
iõđ	-1582
sii	-1583
tum	-1584
tuum	-1585
lǧǧes	-1586
tummu	-1587
tâkaz	-1588
tââǥǥas	-1589
lie	-1590
rks	-1591
õõžž	-1592
▁pess	-1593
tâstt	-1594
▁sǩiâ	-1595
▁ooumaž	-1596
nii	-1597
ääu	-1598
▁ču	-1599
kåčč	-1600
▁čuõvv	-1601
▁vuõltt	-1602
õđ	-1603
min	-1604
▁ba	-1605
▁ter	-1606
▁laau	-1607
õõttâm	-1608
▁kuâđđ	-1609
reäi	-1610
▁njâldd	-1611
iǥ	-1612
vvsan	-1613
llšõdd	-1614
ooumaž	-1615
▁kuõbǯǯ	-1616
rvstõõll	-1617
ce	-1618
čå	-1619
jld	-1620
▁käi	-1621
▁čie	-1622
▁šee	-1623
konomi	-1624
▁vaald	-1625
▁čueǯǯ	-1626
ck	-1627
puå	-1628
õõlam	-1629
▁piiđ	-1630
▁rätkk	-1631
čuâkksa	-1632
jiõ	-1633
jum	-1634
lâž	-1635
arbb	-1636
▁pan	-1637
▁ooudâsviikk	-1638
▁aau	-1639
vooud	-1640
voudd	-1641
▁sutt	-1642
kkstes	-1643
▁põrtt	-1644
▁čõhčč	-1645
▁skuä	-1646
▁ärvv	-1647
rstâtt	-1648
▁håidd	-1649
đstõõll	-1650
ram	-1651
kstõõll	-1652
tõõllmõš	-1653
ba	-1654
nä	-1655
lii	-1656
mue	-1657
råå	-1658
sõõ	-1659
ŋǧǧ	-1660
hssem	-1661
õõlas	-1662
▁võnn	-1663
▁vuägg	-1664
bd	-1665
rstem	-1666
mašina	-1667
▁rekiste	-1668
▁šä	-1669
htte	-1670
ougg	-1671
▁mõõ	-1672
rrnõdd	-1673
▁silbb	-1674
sâ	-1675
lid	-1676
vvl	-1677
männ	-1678
ttlõk	-1679
▁jokk	-1680
▁ååsk	-1681
▁suâvv	-1682
▁viõǥǥ	-1683
sluu	-1684
vaald	-1685
đstes	-1686
▁bluu	-1687
▁vuäđđ	-1688
rti	-1689
see	-1690
kkaž	-1691
▁nõõ	-1692
▁tor	-1693
▁voo	-1694
põõss	-1695
staan	-1696
▁ärgg	-1697
lmstes	-1698
mk	-1699
uh	-1700
ceä	-1701
steä	-1702
rrmõš	-1703
▁njäu	-1704
▁tuärǥ	-1705
▁njaabb	-1706
▁virkkõõvvâm	-1707
mh	-1708
đǥ	-1709
eeiǥ	-1710
stõv	-1711
▁cuõ	-1712
▁sku	-1713
▁sme	-1714
lmâtt	-1715
siltt	-1716
▁vuâŋŋ	-1717
▁čiõlgg	-1718
ntt	-1719
piõ	-1720
ukt	-1721
mätt	-1722
âskk	-1723
rrjem	-1724
ǩeerj	-1725
▁njee	-1726
▁kuâbb	-1727
▁moojj	-1728
▁kaammi	-1729
eri	-1730
kki	-1731
ssi	-1732
▁šuä	-1733
▁jäll	-1734
▁kagg	-1735
▁till	-1736
▁koškk	-1737
▁miõll	-1738
tõõvvâd	-1739
ču	-1740
rdi	-1741
vld	-1742
aapp	-1743
ddâr	-1744
rggn	-1745
vâšn	-1746
▁tai	-1747
▁virks	-1748
▁tuärjj	-1749
lasstõõll	-1750
▁vuõivâšn	-1751
lš	-1752
åumm	-1753
čkkt	-1754
pohtt	-1755
▁kõlm	-1756
▁main	-1757
tõõvvmõš	-1758
▁raajjâm	-1759
rru	-1760
▁râ	-1761
njuu	-1762
▁beâ	-1763
▁käll	-1764
▁kuäiv	-1765
▁čuâgg	-1766
▁ǩeäppn	-1767
luõ	-1768
▁njo	-1769
miârk	-1770
piânn	-1771
šeâtt	-1772
mšeâtt	-1773
ppoocc	-1774
vddkåå	-1775
tstõõll	-1776
âsttmõš	-1777
sõ	-1778
ble	-1779
ppa	-1780
rkt	-1781
kruu	-1782
▁gåå	-1783
stõõv	-1784
rjstes	-1785
▁reâugg	-1786
ppen	-1787
vdden	-1788
▁uidd	-1789
▁õlmm	-1790
▁kaaup	-1791
▁lõstt	-1792
len	-1793
oon	-1794
vee	-1795
logi	-1796
ttje	-1797
šttl	-1798
▁juǥ	-1799
▁tåå	-1800
poodd	-1801
▁õõut	-1802
▁dåhtt	-1803
▁kåbll	-1804
ǩer	-1805
▁groo	-1806
ǩiõldd	-1807
rstõõll	-1808
sp	-1809
iim	-1810
led	-1811
nnu	-1812
ttu	-1813
ǥǥa	-1814
lmaž	-1815
sâjj	-1816
▁vai	-1817
ǩiõll	-1818
▁läähh	-1819
▁ǩeäss	-1820
jo	-1821
lŋŋ	-1822
ran	-1823
ppes	-1824
ääid	-1825
▁rau	-1826
▁aukk	-1827
âš	-1828
keä	-1829
ââm	-1830
ʒʒi	-1831
mmai	-1832
mâst	-1833
õõvvmõ	-1834
škooul	-1835
▁pâurr	-1836
▁viârt	-1837
õõvvmõõ	-1838
õõvvmõšš	-1839
õõvvmõõžž	-1840
õõvvmõšân	-1841
õõvvmõšše	-1842
õõvvmõõžži	-1843
õõvvmõššân	-1844
õõvvmõõžžâž	-1845
õõvvmõšstes	-1846
õõvvmõõžžâst	-1847
sl	-1848
cce	-1849
nje	-1850
▁jâ	-1851
▁kri	-1852
zztem	-1853
▁koǯǯ	-1854
▁kuei	-1855
▁prää	-1856
mnn	-1857
ampp	-1858
dust	-1859
njld	-1860
tuâj	-1861
▁liugg	-1862
▁paakk	-1863
hâ	-1864
lââ	-1865
leei	-1866
▁fri	-1867
llmõš	-1868
õõvvmu	-1869
õõvvmuu	-1870
õõvvmuš	-1871
▁sportt	-1872
õõvvmušš	-1873
õõvvmuužž	-1874
õõvvmušân	-1875
õõvvmušše	-1876
õõvvmuužži	-1877
õõvvmuššân	-1878
õõvvmužžâž	-1879
õõvvmušstes	-1880
õõvvmuužžâst	-1881
mee	-1882
hhar	-1883
podd	-1884
▁tan	-1885
▁stää	-1886
▁mättjem	-1887
rnnj	-1888
▁jââ	-1889
▁paarr	-1890
õõllmõš	-1891
de	-1892
sst	-1893
tõõ	-1894
vva	-1895
đđi	-1896
ŋkt	-1897
▁sm	-1898
iâss	-1899
rram	-1900
stuä	-1901
▁tii	-1902
paakk	-1903
▁nägg	-1904
▁raaj	-1905
▁vuõj	-1906
uǥ	-1907
kau	-1908
reâ	-1909
jânn	-1910
piis	-1911
▁jäu	-1912
▁šuõ	-1913
puäʒʒ	-1914
▁njõõ	-1915
▁skor	-1916
▁taan	-1917
tõõllâd	-1918
rp	-1919
mmǥ	-1920
pcc	-1921
▁ou	-1922
▁juŋ	-1923
ggsan	-1924
▁ǩeeu	-1925
▁kuull	-1926
▁voozz	-1927
uk	-1928
vven	-1929
õhtt	-1930
▁huu	-1931
▁sne	-1932
▁hirm	-1933
▁läinn	-1934
▁suâkk	-1935
tue	-1936
ååu	-1937
▁jau	-1938
âllaz	-1939
▁peel	-1940
suõrmm	-1941
▁kuåkk	-1942
▁suõvv	-1943
imm	-1944
▁šâ	-1945
ppel	-1946
ttân	-1947
▁juä	-1948
▁tei	-1949
▁teer	-1950
▁špei	-1951
▁ǩirr	-1952
rvveem	-1953
smõõvv	-1954
ââstam	-1955
ââstas	-1956
▁	-1957
t	-1958
m	-1959
u	-1960
õ	-1961
s	-1962
e	-1963
a	-1964
š	-1965
l	-1966
ʹ	-1967
i	-1968
â	-1969
k	-1970
n	-1971
r	-1972
v	-1973
ä	-1974
d	-1975
ž	-1976
j	-1977
p	-1978
o	-1979
ǩ	-1980
å	-1981
č	-1982
g	-1983
c	-1984
z	-1985
đ	-1986
ǥ	-1987
b	-1988
h	-1989
ʼ	-1990
ǧ	-1991
ŋ	-1992
ʒ	-1993
-	-1994
ǯ	-1995
f	-1996
